
// This is a TensorFlow Lite model file that has been converted into a C data
// array using the tensorflow.lite.util.convert_bytes_to_c_source() function.
// This form is useful for compiling into a binary for devices that don't have a
// file system.

#include "sine_model.h"

// We need to keep the data array aligned on some architectures.
#ifdef __has_attribute
#define HAVE_ATTRIBUTE(x) __has_attribute(x)
#else
#define HAVE_ATTRIBUTE(x) 0
#endif
#if HAVE_ATTRIBUTE(aligned) || (defined(__GNUC__) && !defined(__clang__))
#define DATA_ALIGN_ATTRIBUTE __attribute__((aligned(4)))
#else
#define DATA_ALIGN_ATTRIBUTE
#endif

const unsigned char sine_model[] DATA_ALIGN_ATTRIBUTE = {
    0x1c, 0x00, 0x00, 0x00, 0x54, 0x46, 0x4c, 0x33, 0x14, 0x00, 0x20, 0x00, 0x1c,
    0x00, 0x18, 0x00, 0x14, 0x00, 0x10, 0x00, 0x0c, 0x00, 0x00, 0x00, 0x08, 0x00,
    0x04, 0x00, 0x14, 0x00, 0x00, 0x00, 0x1c, 0x00, 0x00, 0x00, 0x8c, 0x00, 0x00,
    0x00, 0xe4, 0x00, 0x00, 0x00, 0x10, 0x0d, 0x00, 0x00, 0x20, 0x0d, 0x00, 0x00,
    0xa8, 0x12, 0x00, 0x00, 0x03, 0x00, 0x00, 0x00, 0x01, 0x00, 0x00, 0x00, 0x04,
    0x00, 0x00, 0x00, 0xa2, 0xf2, 0xff, 0xff, 0x0c, 0x00, 0x00, 0x00, 0x1c, 0x00,
    0x00, 0x00, 0x3c, 0x00, 0x00, 0x00, 0x0f, 0x00, 0x00, 0x00, 0x73, 0x65, 0x72,
    0x76, 0x69, 0x6e, 0x67, 0x5f, 0x64, 0x65, 0x66, 0x61, 0x75, 0x6c, 0x74, 0x00,
    0x01, 0x00, 0x00, 0x00, 0x04, 0x00, 0x00, 0x00, 0x90, 0xff, 0xff, 0xff, 0x0a,
    0x00, 0x00, 0x00, 0x04, 0x00, 0x00, 0x00, 0x08, 0x00, 0x00, 0x00, 0x6f, 0x75,
    0x74, 0x70, 0x75, 0x74, 0x5f, 0x30, 0x00, 0x00, 0x00, 0x00, 0x01, 0x00, 0x00,
    0x00, 0x04, 0x00, 0x00, 0x00, 0xb2, 0xf3, 0xff, 0xff, 0x04, 0x00, 0x00, 0x00,
    0x0e, 0x00, 0x00, 0x00, 0x6b, 0x65, 0x72, 0x61, 0x73, 0x5f, 0x74, 0x65, 0x6e,
    0x73, 0x6f, 0x72, 0x5f, 0x34, 0x00, 0x00, 0x02, 0x00, 0x00, 0x00, 0x34, 0x00,
    0x00, 0x00, 0x04, 0x00, 0x00, 0x00, 0xdc, 0xff, 0xff, 0xff, 0x0d, 0x00, 0x00,
    0x00, 0x04, 0x00, 0x00, 0x00, 0x13, 0x00, 0x00, 0x00, 0x43, 0x4f, 0x4e, 0x56,
    0x45, 0x52, 0x53, 0x49, 0x4f, 0x4e, 0x5f, 0x4d, 0x45, 0x54, 0x41, 0x44, 0x41,
    0x54, 0x41, 0x00, 0x08, 0x00, 0x0c, 0x00, 0x08, 0x00, 0x04, 0x00, 0x08, 0x00,
    0x00, 0x00, 0x0c, 0x00, 0x00, 0x00, 0x04, 0x00, 0x00, 0x00, 0x13, 0x00, 0x00,
    0x00, 0x6d, 0x69, 0x6e, 0x5f, 0x72, 0x75, 0x6e, 0x74, 0x69, 0x6d, 0x65, 0x5f,
    0x76, 0x65, 0x72, 0x73, 0x69, 0x6f, 0x6e, 0x00, 0x0e, 0x00, 0x00, 0x00, 0x28,
    0x0c, 0x00, 0x00, 0x20, 0x0c, 0x00, 0x00, 0xd0, 0x0b, 0x00, 0x00, 0xb8, 0x03,
    0x00, 0x00, 0xa4, 0x03, 0x00, 0x00, 0x54, 0x03, 0x00, 0x00, 0xc4, 0x02, 0x00,
    0x00, 0xb4, 0x00, 0x00, 0x00, 0xac, 0x00, 0x00, 0x00, 0xa4, 0x00, 0x00, 0x00,
    0x9c, 0x00, 0x00, 0x00, 0x94, 0x00, 0x00, 0x00, 0x74, 0x00, 0x00, 0x00, 0x04,
    0x00, 0x00, 0x00, 0x66, 0xf4, 0xff, 0xff, 0x04, 0x00, 0x00, 0x00, 0x60, 0x00,
    0x00, 0x00, 0x0c, 0x00, 0x00, 0x00, 0x08, 0x00, 0x0e, 0x00, 0x08, 0x00, 0x04,
    0x00, 0x08, 0x00, 0x00, 0x00, 0x10, 0x00, 0x00, 0x00, 0x28, 0x00, 0x00, 0x00,
    0x00, 0x00, 0x06, 0x00, 0x08, 0x00, 0x04, 0x00, 0x06, 0x00, 0x00, 0x00, 0x04,
    0x00, 0x00, 0x00, 0x01, 0x00, 0x00, 0x00, 0xea, 0x03, 0x00, 0x00, 0x0c, 0x00,
    0x18, 0x00, 0x14, 0x00, 0x10, 0x00, 0x0c, 0x00, 0x04, 0x00, 0x0c, 0x00, 0x00,
    0x00, 0x81, 0x33, 0x3b, 0x5b, 0x48, 0x2c, 0x11, 0x65, 0x02, 0x00, 0x00, 0x00,
    0x02, 0x00, 0x00, 0x00, 0x04, 0x00, 0x00, 0x00, 0x06, 0x00, 0x00, 0x00, 0x32,
    0x2e, 0x31, 0x37, 0x2e, 0x31, 0x00, 0x00, 0xd2, 0xf4, 0xff, 0xff, 0x04, 0x00,
    0x00, 0x00, 0x10, 0x00, 0x00, 0x00, 0x31, 0x2e, 0x31, 0x34, 0x2e, 0x30, 0x00,
    0x00, 0x00, 0x00, 0x00, 0x00, 0x00, 0x00, 0x00, 0x00, 0x30, 0xef, 0xff, 0xff,
    0x34, 0xef, 0xff, 0xff, 0x38, 0xef, 0xff, 0xff, 0x3c, 0xef, 0xff, 0xff, 0xfe,
    0xf4, 0xff, 0xff, 0x04, 0x00, 0x00, 0x00, 0x00, 0x02, 0x00, 0x00, 0x8b, 0xbe,
    0x3b, 0x3e, 0x48, 0xf9, 0x00, 0xbe, 0xc8, 0x2f, 0xaa, 0xbc, 0x51, 0x2a, 0x01,
    0x3f, 0xfe, 0xb9, 0x98, 0xbe, 0xa8, 0xc3, 0xb6, 0x3e, 0x6b, 0x4e, 0x72, 0x3e,
    0x95, 0xbb, 0xb1, 0x3e, 0x7d, 0x7c, 0xcd, 0x3e, 0xf5, 0x28, 0x58, 0x3e, 0x42,
    0x5e, 0x8d, 0x3e, 0x4b, 0x03, 0xa5, 0x3e, 0x31, 0xa4, 0x52, 0xbe, 0x62, 0xde,
    0xa4, 0xbe, 0x18, 0x34, 0xd3, 0xbd, 0x58, 0x14, 0xe2, 0xbd, 0x4f, 0xf6, 0xc6,
    0xbe, 0x34, 0xb0, 0x0d, 0xbf, 0xb0, 0x02, 0xe9, 0xbe, 0xe7, 0x11, 0x90, 0x3e,
    0x49, 0x5e, 0xb1, 0x3e, 0x07, 0xc6, 0xc9, 0x3d, 0x3f, 0xb9, 0xd9, 0xbe, 0x81,
    0x0e, 0x95, 0xbe, 0x80, 0xb3, 0x09, 0xbf, 0x70, 0xde, 0x1a, 0x3e, 0x03, 0xff,
    0x72, 0x3e, 0xcf, 0x9c, 0x12, 0x3f, 0xb0, 0x49, 0x9c, 0x3e, 0xe1, 0x54, 0x22,
    0x3e, 0x6a, 0x86, 0x0c, 0x3e, 0x3a, 0xc6, 0x2a, 0x3d, 0x4f, 0x15, 0x0d, 0xbe,
    0x7d, 0xb5, 0x64, 0xbc, 0x16, 0xa1, 0xa8, 0x3e, 0xf8, 0xf3, 0x3c, 0x3f, 0xad,
    0x00, 0xd7, 0x3d, 0x9c, 0x66, 0x4e, 0x3e, 0x21, 0xa2, 0x30, 0x3f, 0x04, 0xf2,
    0xfa, 0x3e, 0xf6, 0xdd, 0x51, 0xbe, 0x65, 0x03, 0x92, 0xbe, 0xe0, 0xcb, 0x80,
    0xbd, 0xf8, 0xed, 0xa1, 0xbe, 0xda, 0x95, 0xc0, 0x3e, 0x23, 0x68, 0xc7, 0xbe,
    0x9e, 0xb0, 0x07, 0xbf, 0x62, 0xb7, 0x0b, 0x3f, 0xc7, 0xa2, 0x1f, 0x3e, 0x18,
    0x29, 0x96, 0x3e, 0x75, 0x46, 0x8d, 0x3e, 0xc3, 0xaa, 0x2c, 0xbe, 0xf9, 0x8e,
    0x16, 0x3f, 0x8c, 0xe2, 0x32, 0xbe, 0x42, 0xaa, 0x0e, 0x3f, 0x70, 0x4c, 0x08,
    0xbe, 0xe6, 0x5e, 0x58, 0x3e, 0xe8, 0x9d, 0x19, 0xbf, 0x9c, 0x96, 0x35, 0x3f,
    0xfe, 0x40, 0xe7, 0xbe, 0xad, 0xb4, 0xb9, 0x3e, 0x25, 0x76, 0xa4, 0x3e, 0xd0,
    0x6f, 0xec, 0xbe, 0x5f, 0xdd, 0x09, 0xbe, 0x70, 0xca, 0x62, 0x3e, 0x92, 0xb0,
    0x12, 0xbe, 0x50, 0xf2, 0x91, 0xba, 0x66, 0xb0, 0xb7, 0xbc, 0x29, 0xef, 0x02,
    0xbf, 0x15, 0x65, 0x9d, 0xbe, 0xa5, 0x9f, 0x69, 0x3e, 0x63, 0xac, 0x4d, 0x3f,
    0xb6, 0xf6, 0xf8, 0x3e, 0x0f, 0xaf, 0x57, 0x3e, 0x84, 0xe0, 0x74, 0xbe, 0x6f,
    0x1e, 0x01, 0xbe, 0xf6, 0x7c, 0xc4, 0xbe, 0x7d, 0xcf, 0x11, 0x3d, 0x51, 0xbf,
    0x42, 0x3f, 0x3b, 0x25, 0x07, 0xbf, 0x8c, 0x9d, 0x0c, 0xbe, 0x65, 0x53, 0x98,
    0xbe, 0x00, 0xe4, 0x9d, 0xb9, 0x14, 0x3e, 0xa3, 0xbd, 0x8e, 0xfe, 0x12, 0xbe,
    0x5f, 0x4d, 0xfe, 0xbe, 0x7f, 0x18, 0x0d, 0xbf, 0xee, 0x84, 0xbd, 0x3d, 0x46,
    0x57, 0x8e, 0xbe, 0xc7, 0x8f, 0xb7, 0xbe, 0x83, 0x32, 0x95, 0xbe, 0xd0, 0x96,
    0x3a, 0xbe, 0x5d, 0x6b, 0x42, 0xbe, 0xce, 0xbc, 0xeb, 0x3e, 0xc3, 0x61, 0x14,
    0xbf, 0xea, 0x32, 0xc3, 0xbc, 0xde, 0x4e, 0xf6, 0x3e, 0xd1, 0xa4, 0xd8, 0xbe,
    0xc3, 0x01, 0xad, 0xbe, 0x61, 0x67, 0x04, 0xbf, 0x3a, 0x30, 0x10, 0xbe, 0x54,
    0x3a, 0xad, 0xbd, 0x86, 0x0b, 0x25, 0x3c, 0x05, 0x48, 0x5f, 0xbe, 0xf7, 0x1e,
    0x2b, 0xbe, 0xd1, 0x85, 0xed, 0x3e, 0x61, 0x0c, 0xfe, 0xbe, 0x09, 0x9c, 0x39,
    0x3e, 0x40, 0x35, 0x54, 0x3e, 0xa6, 0x46, 0x2f, 0xbd, 0x83, 0x57, 0x7e, 0x3e,
    0x56, 0x7b, 0x82, 0x3e, 0x0a, 0xd9, 0xad, 0x3e, 0xd8, 0x12, 0xac, 0x3e, 0x1e,
    0x8b, 0xda, 0x3e, 0x62, 0x10, 0x0b, 0x3e, 0x03, 0x46, 0x20, 0xbe, 0x95, 0x21,
    0xb7, 0x3e, 0xf1, 0xbb, 0xb3, 0xbe, 0x99, 0x71, 0x7a, 0x3e, 0x52, 0x12, 0x18,
    0xbf, 0x9c, 0xf1, 0x9a, 0xbe, 0x6e, 0xb9, 0x75, 0x3e, 0xfc, 0x5d, 0x06, 0x3f,
    0xd2, 0x93, 0xe5, 0xbe, 0xbb, 0x46, 0xec, 0x3e, 0xd1, 0xae, 0xbe, 0xbe, 0xe5,
    0x21, 0xc0, 0xbe, 0x0a, 0xf7, 0xff, 0xff, 0x04, 0x00, 0x00, 0x00, 0x80, 0x00,
    0x00, 0x00, 0xce, 0x8e, 0xd3, 0x3d, 0xe9, 0xcf, 0x20, 0xbe, 0x9d, 0xe0, 0x32,
    0x3d, 0x00, 0x00, 0x00, 0x00, 0x5d, 0xab, 0x55, 0x3e, 0xfa, 0x7e, 0x2e, 0x3e,
    0x09, 0xc6, 0x83, 0x3e, 0xaf, 0xc3, 0xe1, 0xbc, 0xd0, 0x0e, 0x47, 0x3d, 0x92,
    0xc3, 0x88, 0xbd, 0x00, 0x00, 0x00, 0x00, 0xae, 0xc4, 0xa3, 0x3d, 0x80, 0xe6,
    0x42, 0xbb, 0x1e, 0x36, 0x5a, 0x3e, 0x41, 0x23, 0xdd, 0x3d, 0x37, 0xf8, 0x63,
    0x3e, 0xbe, 0x54, 0xb3, 0x3c, 0x6f, 0x33, 0x72, 0x3e, 0x7a, 0xec, 0xe8, 0x3d,
    0x77, 0x7b, 0x15, 0x3e, 0x00, 0x00, 0x00, 0x00, 0xe8, 0xd6, 0xda, 0x3e, 0x00,
    0x00, 0x00, 0x00, 0xd0, 0x4c, 0xdd, 0x3d, 0x09, 0x07, 0x5d, 0x3e, 0x4e, 0x16,
    0x48, 0xbc, 0x9f, 0xfd, 0xbb, 0xbc, 0xff, 0xa5, 0xb7, 0x3c, 0x3f, 0x3e, 0x33,
    0xbd, 0x69, 0xbf, 0xa4, 0xbd, 0xc1, 0xd4, 0x84, 0x3e, 0xb2, 0x2d, 0x50, 0x3e,
    0x96, 0xf7, 0xff, 0xff, 0x04, 0x00, 0x00, 0x00, 0x40, 0x00, 0x00, 0x00, 0xa5,
    0xb6, 0xec, 0x3d, 0x94, 0x62, 0xb1, 0x3c, 0x80, 0x3c, 0xfa, 0xbc, 0x56, 0x90,
    0xdb, 0xbc, 0x82, 0x4c, 0x97, 0x3d, 0x46, 0x55, 0x5b, 0xbc, 0xca, 0x41, 0x0c,
    0x3d, 0xf6, 0x76, 0xb8, 0x3d, 0x17, 0x0d, 0x30, 0xbd, 0xda, 0x77, 0x0d, 0x3d,
    0xa7, 0x1d, 0xc7, 0x3a, 0x25, 0x8d, 0x2d, 0xbc, 0xc0, 0xa7, 0x05, 0xbc, 0xea,
    0x99, 0xdc, 0x3c, 0x35, 0xe6, 0xfa, 0x3d, 0x3e, 0x40, 0x48, 0xbd, 0xe2, 0xf7,
    0xff, 0xff, 0x04, 0x00, 0x00, 0x00, 0x04, 0x00, 0x00, 0x00, 0xc5, 0x9a, 0xd2,
    0xba, 0xf2, 0xf7, 0xff, 0xff, 0x04, 0x00, 0x00, 0x00, 0x00, 0x08, 0x00, 0x00,
    0x5c, 0xfe, 0x07, 0x3e, 0x48, 0x3d, 0xe5, 0x3e, 0x68, 0x2c, 0xd7, 0x3e, 0xde,
    0x12, 0x14, 0xbe, 0xe3, 0x1f, 0x69, 0xbe, 0x4c, 0x96, 0xdb, 0x3d, 0x50, 0x67,
    0xbc, 0x3e, 0xdd, 0x76, 0x0a, 0x3e, 0x1a, 0x4d, 0xad, 0xbe, 0x20, 0xbe, 0x1e,
    0xbe, 0x27, 0xe3, 0x8e, 0xbe, 0x29, 0xdc, 0x11, 0xbf, 0x15, 0x6e, 0x7f, 0x3e,
    0x35, 0xeb, 0x5c, 0x3e, 0xd3, 0x08, 0x08, 0xbf, 0x0c, 0x3f, 0x0a, 0x3b, 0x0d,
    0x02, 0xbd, 0x3e, 0x37, 0x17, 0xc7, 0xbe, 0xb3, 0x80, 0x6f, 0x3e, 0x6c, 0x6c,
    0x92, 0xbf, 0x0c, 0xa4, 0x8d, 0xbe, 0x1c, 0x46, 0x04, 0x3f, 0x86, 0x03, 0xe9,
    0xbd, 0xa9, 0xf5, 0xc7, 0xbe, 0x0b, 0xa9, 0x61, 0x3f, 0x11, 0x5d, 0x9d, 0xbe,
    0xcb, 0x26, 0x4c, 0xbf, 0xb8, 0x70, 0x70, 0x3e, 0x03, 0x09, 0xd2, 0xbd, 0x99,
    0x27, 0x7c, 0xbf, 0x2f, 0xa6, 0x2e, 0xbf, 0xb0, 0x3e, 0x2b, 0xbf, 0xa9, 0x06,
    0x7a, 0x3e, 0x2c, 0x28, 0x99, 0xbd, 0x7f, 0x9f, 0x88, 0x3e, 0x13, 0x0e, 0x94,
    0x3e, 0x84, 0x11, 0xfd, 0xbe, 0x95, 0x94, 0x87, 0xbe, 0x3c, 0x16, 0x33, 0xbe,
    0x39, 0x4c, 0x0f, 0x3e, 0x56, 0x60, 0x21, 0x3e, 0x36, 0x80, 0xa6, 0x3e, 0x38,
    0x7d, 0x60, 0x3d, 0x6d, 0xaa, 0xa2, 0x3e, 0x91, 0xe9, 0xbe, 0xbe, 0xf4, 0x7d,
    0x09, 0x3f, 0x74, 0xba, 0xe6, 0x3e, 0xfe, 0x05, 0x1d, 0x3e, 0x5b, 0xc2, 0x33,
    0xbe, 0x06, 0xb5, 0x84, 0x3d, 0x0b, 0x0f, 0xfd, 0xbd, 0x0e, 0x37, 0xda, 0x3e,
    0x70, 0xd3, 0x42, 0xbd, 0x8c, 0x4b, 0xd9, 0xbe, 0x2f, 0x24, 0x89, 0x3e, 0x7f,
    0x86, 0x89, 0x3e, 0x15, 0xca, 0xeb, 0xbe, 0xa4, 0xe0, 0x93, 0x3e, 0x56, 0xa8,
    0xa7, 0x3e, 0xf2, 0x6b, 0x80, 0x3c, 0x0c, 0xaf, 0xb8, 0x3e, 0x6b, 0xbe, 0xa0,
    0x3e, 0x24, 0xf2, 0xf8, 0x3e, 0x01, 0x0d, 0x16, 0x3e, 0xbe, 0x36, 0x6c, 0xbe,
    0x61, 0xa6, 0x1f, 0x3f, 0xfe, 0x09, 0xef, 0x3d, 0xb2, 0x31, 0xa0, 0xbe, 0xc3,
    0xaf, 0x56, 0xbf, 0xb7, 0x32, 0x77, 0x3e, 0x5f, 0x2c, 0xa7, 0x3d, 0xc7, 0x33,
    0xf1, 0x3e, 0xb1, 0xdf, 0x75, 0x3e, 0x04, 0xdb, 0xb8, 0x3e, 0x08, 0x26, 0x17,
    0xbd, 0x99, 0xac, 0x2b, 0xbf, 0xba, 0xbe, 0xcb, 0x3e, 0x28, 0xb8, 0xb9, 0x3e,
    0x40, 0x43, 0x61, 0xbe, 0xc7, 0x14, 0x89, 0xbe, 0x1c, 0xd1, 0xc6, 0x3e, 0x6a,
    0xc3, 0x2e, 0x3c, 0xbf, 0xc5, 0x44, 0xbe, 0x40, 0x5c, 0xb7, 0xbe, 0xd8, 0xf7,
    0xa8, 0x3d, 0x9e, 0x72, 0x13, 0x3f, 0xa0, 0xd8, 0xfb, 0xbd, 0x2f, 0x05, 0x8b,
    0xbf, 0x3b, 0x8b, 0x4f, 0x3f, 0x24, 0xff, 0xa3, 0x3e, 0x8a, 0x08, 0x45, 0xbf,
    0xd3, 0x2f, 0xfc, 0x3c, 0x1c, 0x0e, 0xf8, 0x3e, 0x8d, 0xa9, 0x39, 0xbf, 0x59,
    0xc4, 0x06, 0xbf, 0xc9, 0xd0, 0x98, 0xbf, 0xe4, 0x95, 0x5e, 0x3e, 0xc0, 0xf2,
    0x1c, 0xbe, 0x15, 0x24, 0x2f, 0xbe, 0x32, 0xc6, 0x73, 0x3e, 0x03, 0x42, 0x62,
    0xbe, 0xe9, 0x16, 0xc0, 0xbe, 0x70, 0x9b, 0xe5, 0x3d, 0x26, 0xee, 0xdb, 0xbc,
    0xce, 0x83, 0xdb, 0x3e, 0x3f, 0x3e, 0x08, 0x3f, 0x2a, 0xbe, 0x35, 0x3e, 0x10,
    0x31, 0x1f, 0x3f, 0xde, 0xfd, 0x03, 0xbf, 0x06, 0xcf, 0x88, 0x3e, 0x76, 0x99,
    0x9c, 0x3e, 0xb4, 0x88, 0x12, 0xbe, 0x19, 0x80, 0x2b, 0xbd, 0x87, 0x55, 0xf7,
    0x3d, 0xbe, 0xbc, 0x67, 0xbe, 0xc4, 0xfa, 0x57, 0x3f, 0xbc, 0xf1, 0xf1, 0xbd,
    0x21, 0x94, 0x29, 0xbf, 0x2d, 0x93, 0xa2, 0xbe, 0x4d, 0x98, 0x86, 0x3e, 0x8f,
    0x3f, 0x6c, 0xbf, 0x99, 0xa1, 0x3c, 0xbe, 0x0f, 0xa9, 0xe4, 0xbb, 0xc3, 0xbc,
    0x0a, 0x3f, 0x09, 0x36, 0xd0, 0x3e, 0x43, 0xce, 0x0b, 0x3e, 0x6f, 0x6d, 0x56,
    0x3e, 0x02, 0x21, 0x75, 0xbe, 0x26, 0x08, 0x9e, 0xbd, 0x4a, 0xce, 0x16, 0x3e,
    0x4d, 0xae, 0x7b, 0x3e, 0x70, 0x8a, 0x38, 0xbd, 0xb8, 0x8d, 0xe2, 0x3e, 0xdd,
    0xc4, 0x96, 0x3e, 0xd1, 0xa5, 0x33, 0x3f, 0xf1, 0x95, 0xe2, 0x3d, 0x47, 0x55,
    0xcc, 0x3e, 0x56, 0x0e, 0x84, 0x3c, 0x18, 0x6e, 0xb5, 0xbd, 0xd5, 0xd1, 0xf3,
    0xbd, 0x42, 0x18, 0xfa, 0x3e, 0x85, 0x57, 0x3a, 0xbc, 0x3b, 0x2a, 0x6a, 0xbf,
    0xc5, 0x89, 0xb7, 0xbe, 0x8a, 0x62, 0xab, 0x3d, 0xbd, 0x1c, 0xa8, 0x3e, 0xc9,
    0xe5, 0x5a, 0x3e, 0x55, 0xa1, 0x7f, 0xbf, 0x53, 0xae, 0xa0, 0xbe, 0xbc, 0x6c,
    0x47, 0x3f, 0xc0, 0x27, 0x4d, 0x3d, 0xca, 0xab, 0x24, 0xbf, 0x9d, 0xf1, 0x49,
    0x3e, 0x82, 0xa0, 0x88, 0xbe, 0xa6, 0xa5, 0xb3, 0xbe, 0xcd, 0x0a, 0xe5, 0xbd,
    0x25, 0x8f, 0x2d, 0xbd, 0x8b, 0xce, 0x4c, 0xbf, 0xe2, 0x86, 0x9c, 0x3d, 0xa7,
    0x49, 0x92, 0xbf, 0x08, 0xd1, 0x47, 0x3d, 0xf2, 0x4e, 0x88, 0x3e, 0xfe, 0xea,
    0x45, 0xbe, 0x68, 0x7e, 0xb6, 0xbd, 0xb0, 0x3f, 0x71, 0x3e, 0x9c, 0x3e, 0x95,
    0xbd, 0xe4, 0x17, 0xb8, 0xbd, 0xe1, 0x37, 0x0f, 0xbc, 0xb7, 0x77, 0xe8, 0xbd,
    0x0f, 0xd4, 0x75, 0xbe, 0xde, 0x1e, 0x52, 0x3e, 0xf0, 0x15, 0x74, 0xbe, 0x46,
    0xc0, 0xd3, 0xbd, 0x3b, 0xbd, 0x97, 0x3e, 0x25, 0x6e, 0x81, 0xbe, 0xe3, 0xf0,
    0xa5, 0x3e, 0x59, 0x41, 0x38, 0x3e, 0x21, 0x9c, 0x5e, 0x3e, 0x43, 0xf1, 0x8a,
    0xbe, 0x00, 0x36, 0x41, 0xbb, 0x00, 0x68, 0x08, 0x3e, 0xdd, 0x50, 0x0b, 0xbe,
    0x79, 0x17, 0xa9, 0x3e, 0xe0, 0xd6, 0xd9, 0xbc, 0x41, 0x4c, 0x07, 0xbe, 0x34,
    0xd0, 0x86, 0xbd, 0x57, 0xd4, 0x80, 0x3e, 0x89, 0xf0, 0x80, 0x3c, 0xbd, 0xd5,
    0x1b, 0xbe, 0x3d, 0xbe, 0x74, 0xbe, 0xe6, 0xb9, 0x7f, 0xbe, 0xac, 0x9b, 0x87,
    0x3d, 0xcb, 0x30, 0xab, 0x3e, 0xc0, 0xd7, 0xdf, 0x3d, 0xe6, 0xb8, 0xb0, 0x3e,
    0x40, 0xd1, 0xb7, 0xbd, 0x0a, 0x65, 0x1a, 0x3f, 0xc2, 0xd1, 0xa3, 0x3e, 0x6e,
    0xfa, 0xfb, 0x3e, 0xd7, 0x14, 0x3f, 0x3e, 0x14, 0xe7, 0xd2, 0x3d, 0xd1, 0x6a,
    0xd5, 0x3e, 0x30, 0x17, 0xae, 0x3c, 0xf6, 0xcb, 0xda, 0xbe, 0x7e, 0x4e, 0x15,
    0xbe, 0x28, 0xa7, 0x9e, 0x3d, 0x21, 0x05, 0x25, 0xbf, 0x4c, 0xee, 0x4e, 0xbe,
    0x13, 0x9f, 0x6c, 0x3e, 0x6e, 0x9d, 0xda, 0xbd, 0xdc, 0xe2, 0x37, 0xbb, 0xc3,
    0x4f, 0xcf, 0xbd, 0xf0, 0x12, 0x82, 0xbd, 0x83, 0x9c, 0x49, 0x3f, 0x3c, 0xdc,
    0x88, 0xbe, 0x34, 0x11, 0x57, 0xbf, 0x14, 0x2d, 0xd9, 0x3e, 0x44, 0xc3, 0x9b,
    0x3e, 0x64, 0x70, 0x10, 0xbf, 0xb2, 0x17, 0xae, 0x3e, 0x4e, 0x2f, 0x47, 0x3d,
    0xab, 0xab, 0x39, 0xbf, 0x94, 0xa3, 0xb0, 0x3e, 0xfb, 0xc5, 0x87, 0xbf, 0xb8,
    0x41, 0x5f, 0x3e, 0x82, 0xb3, 0x6c, 0xbe, 0xce, 0x5d, 0xb9, 0xbe, 0xf9, 0x4c,
    0x01, 0xbe, 0xaf, 0x7a, 0x1b, 0xbe, 0xb9, 0x7e, 0x41, 0x3f, 0x42, 0xd7, 0x7f,
    0x3e, 0x45, 0xcd, 0x70, 0x3e, 0x69, 0xe5, 0x41, 0xbf, 0xae, 0xcd, 0x94, 0x3d,
    0xb9, 0xc6, 0xa8, 0x3e, 0x76, 0x16, 0x2f, 0xbf, 0xf1, 0x15, 0x62, 0x3e, 0xd4,
    0x16, 0x4e, 0x3e, 0x9c, 0x68, 0xf5, 0xbe, 0x71, 0x64, 0x06, 0x3f, 0xe2, 0x1b,
    0x3a, 0x3e, 0x9f, 0xb3, 0x84, 0xbf, 0x22, 0xea, 0xda, 0x3d, 0x6b, 0xc1, 0x45,
    0xbf, 0xdc, 0x61, 0x96, 0xbd, 0xa9, 0x28, 0x22, 0x3f, 0x14, 0xc4, 0xa7, 0xbd,
    0x73, 0x0d, 0x39, 0x3f, 0xeb, 0x42, 0x9d, 0x3e, 0xdd, 0x87, 0x8a, 0x3e, 0xd7,
    0x0f, 0x05, 0x3f, 0xdc, 0x98, 0xa1, 0x3c, 0x3b, 0x47, 0xac, 0x3c, 0xbe, 0x3d,
    0xb6, 0x3d, 0xbb, 0x5b, 0x7d, 0xbf, 0x3f, 0xd0, 0x02, 0x3f, 0x15, 0xe8, 0x4a,
    0x3d, 0xe9, 0xcb, 0x4d, 0x3e, 0x2c, 0x60, 0xb8, 0x3e, 0xa7, 0xb0, 0xa4, 0x3e,
    0x87, 0xbe, 0x84, 0xbd, 0xcd, 0x95, 0x9d, 0xbe, 0xac, 0x45, 0xb0, 0x3d, 0xf6,
    0xde, 0x8e, 0xbe, 0x82, 0x64, 0x55, 0xbe, 0xc5, 0x04, 0xae, 0x3e, 0xa3, 0x2f,
    0x84, 0x3e, 0x79, 0x45, 0x34, 0x3f, 0xff, 0xb7, 0xd8, 0xbe, 0x3f, 0xfb, 0xe0,
    0x3e, 0x6c, 0x5d, 0xb3, 0x3e, 0x22, 0xcd, 0x15, 0x3e, 0x38, 0x85, 0xf5, 0x3d,
    0x87, 0xdf, 0x43, 0x3e, 0x28, 0x12, 0x59, 0xbe, 0x7d, 0x1b, 0xe6, 0x3e, 0x31,
    0xd4, 0xb4, 0xbe, 0x3b, 0xc0, 0xe9, 0xbe, 0x89, 0x7f, 0x8e, 0x3e, 0x79, 0x1c,
    0x0e, 0xbd, 0x30, 0x61, 0x8c, 0xbf, 0x60, 0x60, 0x10, 0xbd, 0x2e, 0x9a, 0x87,
    0x3e, 0x56, 0x27, 0x7b, 0x3e, 0x35, 0xbf, 0x8c, 0x3e, 0xa2, 0x50, 0xe0, 0x3e,
    0xa9, 0x89, 0xc1, 0x3e, 0x63, 0x0f, 0x9c, 0xbe, 0x35, 0xf4, 0xae, 0x38, 0x75,
    0x68, 0xc0, 0xbe, 0xf6, 0x1d, 0x96, 0x3d, 0x27, 0x36, 0x00, 0xbe, 0x82, 0xe4,
    0xca, 0xbe, 0xb6, 0xd4, 0x48, 0xbf, 0x21, 0x95, 0xfa, 0x3b, 0x9a, 0x2f, 0xda,
    0x3e, 0x64, 0x38, 0xdb, 0x3d, 0x0c, 0x07, 0xa3, 0x3e, 0xc0, 0x27, 0xe4, 0x3b,
    0x35, 0x10, 0x85, 0x3e, 0xb4, 0x9e, 0x52, 0xbe, 0x54, 0x24, 0x73, 0x3e, 0x9b,
    0x18, 0xa2, 0x3e, 0x78, 0x73, 0x4b, 0xbe, 0x23, 0x82, 0x96, 0x3e, 0xff, 0xe3,
    0xc2, 0x3e, 0xa5, 0xf5, 0x77, 0x3e, 0x0e, 0x7b, 0x5e, 0x3f, 0x86, 0xcb, 0x7e,
    0x3e, 0x49, 0x81, 0x4f, 0xbf, 0x1d, 0x5d, 0x83, 0x3e, 0x96, 0x11, 0x2f, 0x3e,
    0x04, 0x2f, 0x5f, 0xbf, 0x3f, 0x88, 0x03, 0x3e, 0xcf, 0x49, 0xb8, 0x3e, 0xaf,
    0x29, 0xfa, 0x3e, 0x33, 0xa3, 0xc7, 0x3d, 0x19, 0xd8, 0x65, 0x3d, 0xb5, 0xad,
    0x33, 0x3f, 0xf8, 0x73, 0xe3, 0x3c, 0xa8, 0xf8, 0x2e, 0x3e, 0x7c, 0x00, 0x73,
    0x3e, 0xa7, 0x87, 0x65, 0x3e, 0x47, 0xe6, 0x88, 0xbe, 0x45, 0x34, 0xd6, 0xbe,
    0x35, 0x33, 0xdc, 0x3d, 0x97, 0xcc, 0xa7, 0x3e, 0x65, 0xe7, 0x30, 0x3e, 0x9d,
    0x35, 0xa0, 0xbe, 0xe1, 0x10, 0x7d, 0x3d, 0xfa, 0x47, 0x4a, 0x3e, 0x84, 0x4a,
    0x2c, 0xbf, 0x25, 0x6a, 0x62, 0x3e, 0xd7, 0xeb, 0x85, 0x3e, 0xc2, 0x6e, 0x7c,
    0xbe, 0xf1, 0x6d, 0x66, 0x3e, 0xed, 0xad, 0xb3, 0x3e, 0xa2, 0x85, 0xbc, 0xbe,
    0xb1, 0x9e, 0xa5, 0x3e, 0xcc, 0xd8, 0x11, 0xbf, 0x10, 0xe8, 0x8b, 0xbd, 0x8d,
    0xba, 0x2e, 0x3f, 0xe7, 0x64, 0xa3, 0x3e, 0xab, 0x06, 0x13, 0xbf, 0x20, 0x81,
    0xe3, 0x3e, 0x54, 0xa5, 0xa9, 0x3e, 0x56, 0x6c, 0xca, 0xbe, 0xfc, 0x72, 0xd7,
    0x3c, 0xee, 0x34, 0x92, 0xbe, 0x12, 0x87, 0xf4, 0xbe, 0x92, 0xe4, 0xb8, 0xbe,
    0xbb, 0x03, 0x1d, 0xbf, 0x9b, 0x20, 0x91, 0x3e, 0x49, 0xec, 0x33, 0xbe, 0xd7,
    0xac, 0x38, 0xbe, 0x37, 0x3e, 0x93, 0xbe, 0xf4, 0x72, 0xcb, 0xbe, 0x24, 0x6a,
    0x65, 0xbf, 0x5f, 0xa5, 0x79, 0xbe, 0xa7, 0x73, 0xb6, 0xbd, 0x76, 0x37, 0x98,
    0x3e, 0x61, 0x11, 0xe3, 0x3e, 0xa4, 0xec, 0xd3, 0x3d, 0x83, 0x99, 0xc4, 0x3e,
    0x0a, 0x4b, 0x4a, 0x3c, 0xe1, 0xe8, 0xfe, 0x3e, 0x90, 0xa3, 0xb8, 0x3e, 0x6c,
    0x22, 0x17, 0xbe, 0xf4, 0xb6, 0xcd, 0xbc, 0xe2, 0xd1, 0x26, 0x3f, 0x0e, 0x0c,
    0xaf, 0x3e, 0xf0, 0x55, 0x31, 0x3f, 0xb8, 0xf1, 0x2f, 0xbd, 0x05, 0x13, 0xed,
    0xbe, 0xb0, 0x99, 0xc6, 0xbc, 0xdf, 0x6e, 0xf5, 0xbd, 0x55, 0x7c, 0x79, 0xbf,
    0x45, 0xd2, 0x26, 0x3e, 0x2c, 0x02, 0xf3, 0x3e, 0x7a, 0x83, 0x91, 0x3e, 0x30,
    0xd5, 0x0a, 0xbe, 0x52, 0xd9, 0xdd, 0x3e, 0x6a, 0x6f, 0xae, 0x3e, 0xdd, 0xc9,
    0xde, 0xbd, 0x12, 0x26, 0xa5, 0xbe, 0x99, 0x05, 0xd3, 0x3d, 0x6d, 0x25, 0x0a,
    0xbe, 0x3e, 0x04, 0xd7, 0xbd, 0xcc, 0x47, 0x21, 0xbe, 0x3b, 0xbf, 0x22, 0xbd,
    0x34, 0x48, 0x96, 0xbd, 0xd7, 0x86, 0xa9, 0xbe, 0xad, 0xdd, 0xcd, 0xbe, 0xa1,
    0x0b, 0x4a, 0x3e, 0x50, 0xa1, 0xa3, 0xbe, 0x06, 0x21, 0xfa, 0xbd, 0x2f, 0x3a,
    0x0f, 0xbd, 0xc1, 0xd0, 0x7a, 0x3d, 0xf4, 0xc6, 0x0f, 0x3f, 0x66, 0xc4, 0xd6,
    0xbe, 0x71, 0xc3, 0x1c, 0xbe, 0xee, 0x94, 0x82, 0xbe, 0xe2, 0xf4, 0xba, 0xbd,
    0x59, 0x05, 0xaf, 0x3e, 0x44, 0x5c, 0xa2, 0xbe, 0xc7, 0x48, 0xc2, 0x3d, 0xc8,
    0x6d, 0xdd, 0x3d, 0x9c, 0xed, 0xc4, 0xbd, 0x0c, 0x19, 0x84, 0x3e, 0x2a, 0x69,
    0x45, 0x3e, 0x98, 0x1b, 0xbc, 0x3c, 0xe5, 0xe3, 0x24, 0x3e, 0xcd, 0x18, 0x76,
    0x3e, 0x79, 0x42, 0xcf, 0xbe, 0x72, 0x05, 0x20, 0x3d, 0xd6, 0x22, 0x84, 0xbd,
    0x6a, 0xe9, 0xde, 0x3e, 0x3b, 0x91, 0x26, 0x3e, 0x4e, 0x79, 0x8f, 0x3e, 0x40,
    0xd3, 0xa3, 0xbb, 0xf6, 0x2b, 0xd5, 0x3e, 0xbe, 0xd1, 0x7a, 0x3e, 0x85, 0xf5,
    0x11, 0x3f, 0x2f, 0x7c, 0xb3, 0x3e, 0xea, 0x96, 0x7d, 0x3e, 0x7a, 0x29, 0x02,
    0xbe, 0x5d, 0xd8, 0x2f, 0xbe, 0x41, 0xb0, 0x2b, 0xbf, 0x12, 0xe9, 0x8a, 0x3e,
    0xdd, 0x0a, 0xae, 0x3d, 0xe1, 0x25, 0x05, 0xbf, 0x37, 0x86, 0x10, 0xbe, 0xfb,
    0xc3, 0xa2, 0x3e, 0x00, 0x2a, 0x98, 0x3e, 0x59, 0xa0, 0x55, 0xbe, 0x96, 0x95,
    0xb5, 0xbe, 0x22, 0x4a, 0x98, 0xbe, 0x91, 0x50, 0xa5, 0x3e, 0xc0, 0x9b, 0x96,
    0x3b, 0x1b, 0xb1, 0xf0, 0xbe, 0x4b, 0xe9, 0x80, 0x3f, 0xe4, 0x50, 0x7b, 0xbd,
    0xe8, 0x15, 0x6e, 0xbf, 0x1a, 0x75, 0xd2, 0x3d, 0xaf, 0xdb, 0xee, 0x3c, 0x8d,
    0x51, 0x1b, 0xbf, 0x05, 0x3c, 0x4c, 0x3d, 0xa2, 0x52, 0x69, 0xbf, 0xc6, 0xa4,
    0xbf, 0x3d, 0x93, 0xc8, 0x9f, 0x3e, 0x27, 0x0e, 0xb9, 0x3e, 0xb2, 0xa8, 0x90,
    0xbe, 0xb8, 0x81, 0x0d, 0x3f, 0x4a, 0x7b, 0x50, 0xbf, 0xe0, 0x47, 0x02, 0x3f,
    0x6a, 0xdb, 0x65, 0x3e, 0x40, 0xd6, 0xfd, 0x3c, 0x0b, 0x64, 0x61, 0x3e, 0x0e,
    0x7c, 0x44, 0x3e, 0xf6, 0x5a, 0x18, 0x3e, 0xca, 0x37, 0xa5, 0x3e, 0x10, 0x55,
    0xae, 0xbe, 0xe7, 0x50, 0xf7, 0xbe, 0x1b, 0xcf, 0x98, 0xbf, 0xb8, 0xeb, 0x14,
    0xbf, 0xd1, 0x01, 0x04, 0x3f, 0x3a, 0xf5, 0x58, 0xbf, 0xee, 0x86, 0x80, 0x3d,
    0x02, 0xa9, 0x1d, 0x3e, 0x09, 0x45, 0x05, 0x3f, 0xaf, 0x68, 0x9c, 0xbe, 0xc5,
    0x4d, 0x86, 0xbf, 0xd3, 0xb9, 0x3e, 0xbf, 0xf3, 0x69, 0x39, 0xbd, 0x1f, 0xe4,
    0x2d, 0xbf, 0xda, 0xf4, 0xd0, 0xbd, 0x0f, 0xc2, 0x0b, 0xbe, 0xa7, 0xae, 0x22,
    0x3e, 0xfb, 0x8e, 0x42, 0x3e, 0x3e, 0xfb, 0x11, 0xbf, 0xf8, 0xe2, 0xb3, 0x3e,
    0x48, 0xec, 0xcd, 0xbe, 0x06, 0x7a, 0x32, 0x3e, 0xd6, 0xdf, 0xe4, 0xbd, 0x04,
    0x82, 0x75, 0xbe, 0x0b, 0x94, 0xa1, 0xbe, 0x5e, 0x68, 0xe9, 0x3d, 0x6b, 0x89,
    0xf5, 0xbd, 0xe7, 0x73, 0x8b, 0x3e, 0x4e, 0x4d, 0x9e, 0x3d, 0xa6, 0xbd, 0x26,
    0x3e, 0x3e, 0xd7, 0x28, 0x3f, 0x5b, 0x2c, 0xf1, 0x3d, 0xaf, 0x02, 0x91, 0x3e,
    0xfe, 0x2e, 0xac, 0x3e, 0x2f, 0xe5, 0x09, 0x3e, 0x9a, 0xe7, 0x4e, 0x3e, 0x60,
    0xef, 0xf1, 0x3e, 0xc0, 0xfb, 0x36, 0xbe, 0x5f, 0x43, 0x65, 0x3f, 0x60, 0x21,
    0x23, 0xbd, 0x64, 0x68, 0x48, 0xbf, 0x60, 0x8d, 0x13, 0x3d, 0xa7, 0x50, 0xdd,
    0xbd, 0xc2, 0xa8, 0x31, 0xbf, 0x55, 0xe9, 0x81, 0x3e, 0xfb, 0x7a, 0x76, 0x3e,
    0x22, 0x1b, 0xb2, 0xbd, 0x9f, 0xd3, 0x7c, 0x3e, 0x02, 0xa5, 0xc1, 0x3e, 0xb6,
    0xed, 0x6e, 0x3e, 0xfa, 0x56, 0xd8, 0xbe, 0x00, 0x00, 0x06, 0x00, 0x08, 0x00,
    0x04, 0x00, 0x06, 0x00, 0x00, 0x00, 0x04, 0x00, 0x00, 0x00, 0x40, 0x00, 0x00,
    0x00, 0x1d, 0x8c, 0x23, 0x3f, 0x62, 0x51, 0xf1, 0xbe, 0x68, 0xcf, 0x4f, 0x3f,
    0x7f, 0xef, 0xf3, 0xbe, 0xbe, 0x83, 0x8b, 0x3f, 0xde, 0x3a, 0x15, 0xbf, 0x0e,
    0x4f, 0x40, 0x3f, 0x1e, 0xcb, 0x69, 0x3f, 0x98, 0xdd, 0xa7, 0xbe, 0x32, 0x4d,
    0x40, 0xbf, 0xff, 0xdb, 0x25, 0x3f, 0xa3, 0x62, 0x0f, 0xbf, 0xa9, 0x69, 0x76,
    0x3f, 0xbf, 0x87, 0x8a, 0x3f, 0x00, 0x97, 0x85, 0x3f, 0x62, 0x2b, 0xf9, 0xbe,
    0x94, 0xfa, 0xff, 0xff, 0x98, 0xfa, 0xff, 0xff, 0x0f, 0x00, 0x00, 0x00, 0x4d,
    0x4c, 0x49, 0x52, 0x20, 0x43, 0x6f, 0x6e, 0x76, 0x65, 0x72, 0x74, 0x65, 0x64,
    0x2e, 0x00, 0x01, 0x00, 0x00, 0x00, 0x14, 0x00, 0x00, 0x00, 0x00, 0x00, 0x0e,
    0x00, 0x18, 0x00, 0x14, 0x00, 0x10, 0x00, 0x0c, 0x00, 0x08, 0x00, 0x04, 0x00,
    0x0e, 0x00, 0x00, 0x00, 0x14, 0x00, 0x00, 0x00, 0x1c, 0x00, 0x00, 0x00, 0x08,
    0x01, 0x00, 0x00, 0x0c, 0x01, 0x00, 0x00, 0x10, 0x01, 0x00, 0x00, 0x04, 0x00,
    0x00, 0x00, 0x6d, 0x61, 0x69, 0x6e, 0x00, 0x00, 0x00, 0x00, 0x04, 0x00, 0x00,
    0x00, 0xb0, 0x00, 0x00, 0x00, 0x68, 0x00, 0x00, 0x00, 0x34, 0x00, 0x00, 0x00,
    0x10, 0x00, 0x00, 0x00, 0x00, 0x00, 0x0a, 0x00, 0x10, 0x00, 0x0c, 0x00, 0x08,
    0x00, 0x04, 0x00, 0x0a, 0x00, 0x00, 0x00, 0x0c, 0x00, 0x00, 0x00, 0x10, 0x00,
    0x00, 0x00, 0x01, 0x00, 0x00, 0x00, 0x01, 0x00, 0x00, 0x00, 0x0a, 0x00, 0x00,
    0x00, 0x01, 0x00, 0x00, 0x00, 0x09, 0x00, 0x00, 0x00, 0x9a, 0xff, 0xff, 0xff,
    0x10, 0x00, 0x00, 0x00, 0x00, 0x00, 0x00, 0x08, 0x0c, 0x00, 0x00, 0x00, 0x10,
    0x00, 0x00, 0x00, 0x40, 0xfb, 0xff, 0xff, 0x01, 0x00, 0x00, 0x00, 0x09, 0x00,
    0x00, 0x00, 0x03, 0x00, 0x00, 0x00, 0x08, 0x00, 0x00, 0x00, 0x01, 0x00, 0x00,
    0x00, 0x03, 0x00, 0x00, 0x00, 0xca, 0xff, 0xff, 0xff, 0x10, 0x00, 0x00, 0x00,
    0x00, 0x00, 0x00, 0x08, 0x10, 0x00, 0x00, 0x00, 0x14, 0x00, 0x00, 0x00, 0xba,
    0xff, 0xff, 0xff, 0x00, 0x00, 0x00, 0x01, 0x01, 0x00, 0x00, 0x00, 0x08, 0x00,
    0x00, 0x00, 0x03, 0x00, 0x00, 0x00, 0x07, 0x00, 0x00, 0x00, 0x02, 0x00, 0x00,
    0x00, 0x04, 0x00, 0x00, 0x00, 0x00, 0x00, 0x0e, 0x00, 0x16, 0x00, 0x00, 0x00,
    0x10, 0x00, 0x0c, 0x00, 0x0b, 0x00, 0x04, 0x00, 0x0e, 0x00, 0x00, 0x00, 0x18,
    0x00, 0x00, 0x00, 0x00, 0x00, 0x00, 0x08, 0x18, 0x00, 0x00, 0x00, 0x1c, 0x00,
    0x00, 0x00, 0x00, 0x00, 0x06, 0x00, 0x08, 0x00, 0x07, 0x00, 0x06, 0x00, 0x00,
    0x00, 0x00, 0x00, 0x00, 0x01, 0x01, 0x00, 0x00, 0x00, 0x07, 0x00, 0x00, 0x00,
    0x03, 0x00, 0x00, 0x00, 0x00, 0x00, 0x00, 0x00, 0x06, 0x00, 0x00, 0x00, 0x05,
    0x00, 0x00, 0x00, 0x01, 0x00, 0x00, 0x00, 0x0a, 0x00, 0x00, 0x00, 0x01, 0x00,
    0x00, 0x00, 0x00, 0x00, 0x00, 0x00, 0x0b, 0x00, 0x00, 0x00, 0xe8, 0x03, 0x00,
    0x00, 0x90, 0x03, 0x00, 0x00, 0x38, 0x03, 0x00, 0x00, 0xfc, 0x02, 0x00, 0x00,
    0xc0, 0x02, 0x00, 0x00, 0x68, 0x02, 0x00, 0x00, 0x18, 0x02, 0x00, 0x00, 0x7c,
    0x01, 0x00, 0x00, 0xe0, 0x00, 0x00, 0x00, 0x60, 0x00, 0x00, 0x00, 0x04, 0x00,
    0x00, 0x00, 0x5a, 0xfc, 0xff, 0xff, 0x00, 0x00, 0x00, 0x01, 0x14, 0x00, 0x00,
    0x00, 0x1c, 0x00, 0x00, 0x00, 0x1c, 0x00, 0x00, 0x00, 0x0b, 0x00, 0x00, 0x00,
    0x34, 0x00, 0x00, 0x00, 0x02, 0x00, 0x00, 0x00, 0xff, 0xff, 0xff, 0xff, 0x01,
    0x00, 0x00, 0x00, 0x44, 0xfc, 0xff, 0xff, 0x1b, 0x00, 0x00, 0x00, 0x53, 0x74,
    0x61, 0x74, 0x65, 0x66, 0x75, 0x6c, 0x50, 0x61, 0x72, 0x74, 0x69, 0x74, 0x69,
    0x6f, 0x6e, 0x65, 0x64, 0x43, 0x61, 0x6c, 0x6c, 0x5f, 0x31, 0x3a, 0x30, 0x00,
    0x02, 0x00, 0x00, 0x00, 0x01, 0x00, 0x00, 0x00, 0x01, 0x00, 0x00, 0x00, 0xb2,
    0xfc, 0xff, 0xff, 0x00, 0x00, 0x00, 0x01, 0x14, 0x00, 0x00, 0x00, 0x1c, 0x00,
    0x00, 0x00, 0x1c, 0x00, 0x00, 0x00, 0x0a, 0x00, 0x00, 0x00, 0x58, 0x00, 0x00,
    0x00, 0x02, 0x00, 0x00, 0x00, 0xff, 0xff, 0xff, 0xff, 0x01, 0x00, 0x00, 0x00,
    0x9c, 0xfc, 0xff, 0xff, 0x3c, 0x00, 0x00, 0x00, 0x73, 0x65, 0x71, 0x75, 0x65,
    0x6e, 0x74, 0x69, 0x61, 0x6c, 0x5f, 0x31, 0x5f, 0x31, 0x2f, 0x64, 0x65, 0x6e,
    0x73, 0x65, 0x5f, 0x35, 0x5f, 0x31, 0x2f, 0x4d, 0x61, 0x74, 0x4d, 0x75, 0x6c,
    0x3b, 0x73, 0x65, 0x71, 0x75, 0x65, 0x6e, 0x74, 0x69, 0x61, 0x6c, 0x5f, 0x31,
    0x5f, 0x31, 0x2f, 0x64, 0x65, 0x6e, 0x73, 0x65, 0x5f, 0x35, 0x5f, 0x31, 0x2f,
    0x41, 0x64, 0x64, 0x00, 0x00, 0x00, 0x00, 0x02, 0x00, 0x00, 0x00, 0x01, 0x00,
    0x00, 0x00, 0x01, 0x00, 0x00, 0x00, 0x2e, 0xfd, 0xff, 0xff, 0x00, 0x00, 0x00,
    0x01, 0x14, 0x00, 0x00, 0x00, 0x1c, 0x00, 0x00, 0x00, 0x1c, 0x00, 0x00, 0x00,
    0x09, 0x00, 0x00, 0x00, 0x74, 0x00, 0x00, 0x00, 0x02, 0x00, 0x00, 0x00, 0xff,
    0xff, 0xff, 0xff, 0x10, 0x00, 0x00, 0x00, 0x18, 0xfd, 0xff, 0xff, 0x5a, 0x00,
    0x00, 0x00, 0x73, 0x65, 0x71, 0x75, 0x65, 0x6e, 0x74, 0x69, 0x61, 0x6c, 0x5f,
    0x31, 0x5f, 0x31, 0x2f, 0x64, 0x65, 0x6e, 0x73, 0x65, 0x5f, 0x34, 0x5f, 0x31,
    0x2f, 0x4d, 0x61, 0x74, 0x4d, 0x75, 0x6c, 0x3b, 0x73, 0x65, 0x71, 0x75, 0x65,
    0x6e, 0x74, 0x69, 0x61, 0x6c, 0x5f, 0x31, 0x5f, 0x31, 0x2f, 0x64, 0x65, 0x6e,
    0x73, 0x65, 0x5f, 0x34, 0x5f, 0x31, 0x2f, 0x52, 0x65, 0x6c, 0x75, 0x3b, 0x73,
    0x65, 0x71, 0x75, 0x65, 0x6e, 0x74, 0x69, 0x61, 0x6c, 0x5f, 0x31, 0x5f, 0x31,
    0x2f, 0x64, 0x65, 0x6e, 0x73, 0x65, 0x5f, 0x34, 0x5f, 0x31, 0x2f, 0x41, 0x64,
    0x64, 0x00, 0x00, 0x02, 0x00, 0x00, 0x00, 0x01, 0x00, 0x00, 0x00, 0x10, 0x00,
    0x00, 0x00, 0xc6, 0xfd, 0xff, 0xff, 0x00, 0x00, 0x00, 0x01, 0x14, 0x00, 0x00,
    0x00, 0x1c, 0x00, 0x00, 0x00, 0x1c, 0x00, 0x00, 0x00, 0x08, 0x00, 0x00, 0x00,
    0x74, 0x00, 0x00, 0x00, 0x02, 0x00, 0x00, 0x00, 0xff, 0xff, 0xff, 0xff, 0x20,
    0x00, 0x00, 0x00, 0xb0, 0xfd, 0xff, 0xff, 0x5a, 0x00, 0x00, 0x00, 0x73, 0x65,
    0x71, 0x75, 0x65, 0x6e, 0x74, 0x69, 0x61, 0x6c, 0x5f, 0x31, 0x5f, 0x31, 0x2f,
    0x64, 0x65, 0x6e, 0x73, 0x65, 0x5f, 0x33, 0x5f, 0x31, 0x2f, 0x4d, 0x61, 0x74,
    0x4d, 0x75, 0x6c, 0x3b, 0x73, 0x65, 0x71, 0x75, 0x65, 0x6e, 0x74, 0x69, 0x61,
    0x6c, 0x5f, 0x31, 0x5f, 0x31, 0x2f, 0x64, 0x65, 0x6e, 0x73, 0x65, 0x5f, 0x33,
    0x5f, 0x31, 0x2f, 0x52, 0x65, 0x6c, 0x75, 0x3b, 0x73, 0x65, 0x71, 0x75, 0x65,
    0x6e, 0x74, 0x69, 0x61, 0x6c, 0x5f, 0x31, 0x5f, 0x31, 0x2f, 0x64, 0x65, 0x6e,
    0x73, 0x65, 0x5f, 0x33, 0x5f, 0x31, 0x2f, 0x41, 0x64, 0x64, 0x00, 0x00, 0x02,
    0x00, 0x00, 0x00, 0x01, 0x00, 0x00, 0x00, 0x20, 0x00, 0x00, 0x00, 0xb2, 0xfe,
    0xff, 0xff, 0x00, 0x00, 0x00, 0x01, 0x10, 0x00, 0x00, 0x00, 0x10, 0x00, 0x00,
    0x00, 0x07, 0x00, 0x00, 0x00, 0x2c, 0x00, 0x00, 0x00, 0x38, 0xfe, 0xff, 0xff,
    0x1f, 0x00, 0x00, 0x00, 0x73, 0x65, 0x71, 0x75, 0x65, 0x6e, 0x74, 0x69, 0x61,
    0x6c, 0x5f, 0x31, 0x5f, 0x31, 0x2f, 0x64, 0x65, 0x6e, 0x73, 0x65, 0x5f, 0x33,
    0x5f, 0x31, 0x2f, 0x4d, 0x61, 0x74, 0x4d, 0x75, 0x6c, 0x00, 0x02, 0x00, 0x00,
    0x00, 0x20, 0x00, 0x00, 0x00, 0x04, 0x00, 0x00, 0x00, 0xfe, 0xfe, 0xff, 0xff,
    0x00, 0x00, 0x00, 0x01, 0x10, 0x00, 0x00, 0x00, 0x10, 0x00, 0x00, 0x00, 0x06,
    0x00, 0x00, 0x00, 0x38, 0x00, 0x00, 0x00, 0x84, 0xfe, 0xff, 0xff, 0x2b, 0x00,
    0x00, 0x00, 0x73, 0x65, 0x71, 0x75, 0x65, 0x6e, 0x74, 0x69, 0x61, 0x6c, 0x5f,
    0x31, 0x5f, 0x31, 0x2f, 0x64, 0x65, 0x6e, 0x73, 0x65, 0x5f, 0x33, 0x5f, 0x31,
    0x2f, 0x41, 0x64, 0x64, 0x2f, 0x52, 0x65, 0x61, 0x64, 0x56, 0x61, 0x72, 0x69,
    0x61, 0x62, 0x6c, 0x65, 0x4f, 0x70, 0x00, 0x01, 0x00, 0x00, 0x00, 0x20, 0x00,
    0x00, 0x00, 0x52, 0xff, 0xff, 0xff, 0x00, 0x00, 0x00, 0x01, 0x10, 0x00, 0x00,
    0x00, 0x10, 0x00, 0x00, 0x00, 0x05, 0x00, 0x00, 0x00, 0x1c, 0x00, 0x00, 0x00,
    0xd8, 0xfe, 0xff, 0xff, 0x0f, 0x00, 0x00, 0x00, 0x61, 0x72, 0x69, 0x74, 0x68,
    0x2e, 0x63, 0x6f, 0x6e, 0x73, 0x74, 0x61, 0x6e, 0x74, 0x33, 0x00, 0x01, 0x00,
    0x00, 0x00, 0x10, 0x00, 0x00, 0x00, 0x8a, 0xff, 0xff, 0xff, 0x00, 0x00, 0x00,
    0x01, 0x10, 0x00, 0x00, 0x00, 0x10, 0x00, 0x00, 0x00, 0x04, 0x00, 0x00, 0x00,
    0x1c, 0x00, 0x00, 0x00, 0x10, 0xff, 0xff, 0xff, 0x0f, 0x00, 0x00, 0x00, 0x61,
    0x72, 0x69, 0x74, 0x68, 0x2e, 0x63, 0x6f, 0x6e, 0x73, 0x74, 0x61, 0x6e, 0x74,
    0x32, 0x00, 0x01, 0x00, 0x00, 0x00, 0x01, 0x00, 0x00, 0x00, 0xc2, 0xff, 0xff,
    0xff, 0x00, 0x00, 0x00, 0x01, 0x10, 0x00, 0x00, 0x00, 0x10, 0x00, 0x00, 0x00,
    0x03, 0x00, 0x00, 0x00, 0x1c, 0x00, 0x00, 0x00, 0x48, 0xff, 0xff, 0xff, 0x0f,
    0x00, 0x00, 0x00, 0x61, 0x72, 0x69, 0x74, 0x68, 0x2e, 0x63, 0x6f, 0x6e, 0x73,
    0x74, 0x61, 0x6e, 0x74, 0x31, 0x00, 0x02, 0x00, 0x00, 0x00, 0x10, 0x00, 0x00,
    0x00, 0x20, 0x00, 0x00, 0x00, 0x00, 0x00, 0x16, 0x00, 0x18, 0x00, 0x14, 0x00,
    0x00, 0x00, 0x10, 0x00, 0x0c, 0x00, 0x08, 0x00, 0x00, 0x00, 0x00, 0x00, 0x00,
    0x00, 0x07, 0x00, 0x16, 0x00, 0x00, 0x00, 0x00, 0x00, 0x00, 0x01, 0x10, 0x00,
    0x00, 0x00, 0x10, 0x00, 0x00, 0x00, 0x02, 0x00, 0x00, 0x00, 0x1c, 0x00, 0x00,
    0x00, 0x9c, 0xff, 0xff, 0xff, 0x0e, 0x00, 0x00, 0x00, 0x61, 0x72, 0x69, 0x74,
    0x68, 0x2e, 0x63, 0x6f, 0x6e, 0x73, 0x74, 0x61, 0x6e, 0x74, 0x00, 0x00, 0x02,
    0x00, 0x00, 0x00, 0x01, 0x00, 0x00, 0x00, 0x10, 0x00, 0x00, 0x00, 0x00, 0x00,
    0x16, 0x00, 0x1c, 0x00, 0x18, 0x00, 0x00, 0x00, 0x14, 0x00, 0x10, 0x00, 0x0c,
    0x00, 0x00, 0x00, 0x00, 0x00, 0x08, 0x00, 0x07, 0x00, 0x16, 0x00, 0x00, 0x00,
    0x00, 0x00, 0x00, 0x01, 0x14, 0x00, 0x00, 0x00, 0x20, 0x00, 0x00, 0x00, 0x20,
    0x00, 0x00, 0x00, 0x01, 0x00, 0x00, 0x00, 0x40, 0x00, 0x00, 0x00, 0x02, 0x00,
    0x00, 0x00, 0xff, 0xff, 0xff, 0xff, 0x04, 0x00, 0x00, 0x00, 0x04, 0x00, 0x04,
    0x00, 0x04, 0x00, 0x00, 0x00, 0x20, 0x00, 0x00, 0x00, 0x73, 0x65, 0x72, 0x76,
    0x69, 0x6e, 0x67, 0x5f, 0x64, 0x65, 0x66, 0x61, 0x75, 0x6c, 0x74, 0x5f, 0x6b,
    0x65, 0x72, 0x61, 0x73, 0x5f, 0x74, 0x65, 0x6e, 0x73, 0x6f, 0x72, 0x5f, 0x34,
    0x3a, 0x30, 0x00, 0x00, 0x00, 0x00, 0x02, 0x00, 0x00, 0x00, 0x01, 0x00, 0x00,
    0x00, 0x04, 0x00, 0x00, 0x00, 0x02, 0x00, 0x00, 0x00, 0x20, 0x00, 0x00, 0x00,
    0x04, 0x00, 0x00, 0x00, 0xf4, 0xff, 0xff, 0xff, 0x0e, 0x00, 0x00, 0x00, 0x00,
    0x00, 0x00, 0x0e, 0x0c, 0x00, 0x0c, 0x00, 0x0b, 0x00, 0x00, 0x00, 0x00, 0x00,
    0x04, 0x00, 0x0c, 0x00, 0x00, 0x00, 0x09, 0x00, 0x00, 0x00, 0x00, 0x00, 0x00,
    0x09,
};
const int sine_model_len = 4876;
